h e
Ġ t
Ġ a
Ġ s
n d
Ġ w
Ġt he
e d
Ġa nd
Ġt o
Ġ b
i n
Ġ h
Ġw a
r e
Ġ f
i t
o u
Ġ c
Ġ l
Ġ he
Ġ d
e r
Ġwa s
Ġ m
Ġ p
o m
Ġ T
Ġ o
a y
a r
in g
i s
Ġ g
i l
i d
a t
e n
Ġ n
Ġs a
Ġh a
Ġ S
i m
a n
ĠT he
o r
o n
Ġ it
Ġt h
l l
l e
Ġ H
Ġhe r
e t
o t
i r
ĠS he
e nd
ĠH e
v er
e s
Ġ in
u t
o w
c k
Ġ u
l d
ĠThe y
o o
e x
i g
Ġsa id
a m
il y
Ġ y
Ġb e
Ġ r
Ġs t
c e
Ġs he
Ġ "
p p
k e
it h
O n
Ġ I
Ġw ith
v e
L ily
Ġo n
Ġo f
Ġs o
Ġh is
k ed
f t
r i
n t
ver y
Ġp l
Ġd ay
a d
Ġy ou
Ġth at
Ġu p
Ġha d
e l
s t
Ġpl ay
ex t
Ġthe y
Ġ Lily
Ġm om
m y
Ġ e
Ġw e
Ġf or
ou ld
u n
ft ext
end o
endo ftext
| >
< |
Ġ B
' s
it t
en t
Ġha pp
T he
c h
Ġl i
ou t
Ġwa nt
Ġs h
he r
l y
im e
itt le
ou nd
Ġ very
Ġt ime
om e
Ġl ittle
Ġthe re
s e
Ġd o
Ġw h
a ll
Ġ k
a l
h t
Ġ re
Ġn ot
Ġhapp y
Ġb ig
Ġ M
Ġb ut
Ġs m
a ck
Ġsa w
ĠI t
Ġa s
Ġa n
r a
Ġn e
ri end
Ġf riend
id e
On e
r y
' t
v ed
Ġ is
On ce
a ke
. "
Ġwe re
u g
Ġl oo
Ġl o
o re
e c
ĠT im
Ġh im
Ġb o
! "
Ġto o
Ġup on
Ġg o
ir l
Ġ j
Ġwant ed
Ġg irl
Ġs e
Ġ out
ar d
w ay
Ġs p
il l
i nd
Ġthe m
Ġc ould
f u
he n
Ġa t
u r
Ġd id
Ġsm il
Ġthe ir
Ġa re
Ġ A
a in
Ġ ex
Ġw ent
ar t
he d
r om
i c
r ound
Ġha ve
t er
Ġn am
l p
Ġa ll
Ġ J
fu l
Ġk n
h ing
oo d
Ġhe lp
ig ht
Ġfriend s
on e
ar k
Ġb ack
u m
Ġc an
Ġnam ed
Ġc l
? "
Ġf un
a re
ĠB en
Ġlo ved
el t
Ġa l
ĠTim my
Ġ One
o p
s ide
Ġl e
Ġn o
Ġs c
ĠT om
Ġf elt
ou g
Ġsmil ed
i ck
Ġas ked
Y ou
Ġto y
Ġm an
Ġa round
am e
Ġf e
Ġs ay
Ġbo y
Ġs ome
Ġloo ked
u re
om et
Ġb r
Ġw ould
Ġm e
Ġb ir
Ġli ke
g et
Ġst art
Ġr o
a s
Ġse e
Ġ W
i ce
on g
Ġbir d
Ġs omet
d d
Ġw or
ad e
i e
k ing
Ġa g
ow n
Ġt re
Ġf a
Ġa way
Ġwh at
ing s
Ġstart ed
get her
Ġr an
ar ed
Ġm ake
ĠB ut
it ed
ou d
Ġm ade
Ġto gether
Ġsomet hing
Ġex c
a g
Ġc o
Ġp ark
Ġne w
Ġsa d
Ġp ut
, "
Ġf rom
b le
t her
Ġp r
Ġm u
Ġc ar
Ġh ome
Ġ You
Ġthe n
i f
Ġw hen
Ġf ound
e ll
Ġag ain
Ġo ther
Ġc h
Ġd ec
Ġwh o
Ġl a
ri ed
s s
Ġg ood
Ġh ug
Ġ L
pp ed
Ġwa l
e p
all y
Ġsay s
Ġf l
es t
a ch
Ġ E
Ġexc ited
p l
q u
oo k
Ġg et
oug ht
Ġplay ing
Ġg ot
Ġs w
ou s
h at
n y
id ed
u ck
Ġth ings
Ġe very
Ġdec ided
Ġc ame
Ġbe c
a ve
r o
a x
Ġ v
Ġli ked
Ġd own
Ġdo g
Ġsc ared
u dd
u st
Ġon e
Ġf ind
Ġb l
Ġth an
Ġ D
ou se
way s
Ġkn e
Ġdid n
Ġmom my
a p
Ġc are
Ġal ways
Ġa b
is t
Ġd ad
Ġfe el
ar a
b b
ar n
f e
Ġyou r
Ġout side
u e
Ġg ra
an t
Ġ ke
ĠM om
Ġtoo k
Ġl ot
n n
Ġb u
Ġab out
es s
Ġ F
nd er
Ġtre e
ec i
Ġloo k
Ġp o
Ġm y
ou r
Ġtoy s
it e
c hed
Ġkne w
Ġth ought
en ed
Ġle arn
Ġin t
Ġo ld
Ġm ore
nn a
is e
g ed
Ġt a
udd en
eci al
Ġsp ecial
ĠM ax
a u
Ġw ill
The y
er s
Ġp e
re t
Ġh o
ĠS am
Ġt ake
Ġb all
Ġkn ow
Ġla ug
ft er
udden ly
Ġc at
Ġh ow
i ve
Ġt r
Ġmu ch
Ġan y
Ġp u
m a
Ġs l
Ġs or
Ġm o
v en
is h
Ġsh ow
Ġcould n
au se
in k
B ut
Ġh ouse
Ġint o
um p
Ġo ver
Ġt ried
a nd
Ġe at
Ġs k
Ġs un
Ġcl o
Ġt w
Ġr un
i a
Ġha nd
ĠE very
Ġ en
Ġin side
d y
Ġ if
Ġto ld
Ġne ver
i on
Ġ qu
Ġbec ause
b y
Ġpr oud
Ġg ave
Ġsor ry
Ġth is
Ġo p
Ġplay ed
at e
Ġex pl
Ġhe ard
t y
Ġo r
Ġwa ter
an k
g e
Ġp ick
s ed
ot her
Ġro om
et ter
Ġj ust
a ce
Ġhug ged
Ġg re
a k
he re
Ġof f
ĠS ara
Ġp ret
Ġe ach
il e
Ġl ong
Ġc om
Ġbo x
or t
Ġst r
i z
Ġu nt
Ġne ed
ot h
Ġwa t
Ġj o
ĠW e
Ġsm all
T om
in e
Ġbe ar
M om
Ġunt il
Ġn ice
Ġt ry
el f
v ing
u c
oug h
Ġlearn ed
Ġk ind
ĠA nna
il d
Ġf o
Ġman y
' m
ĠJ ack
Ġb etter
Ġ im
im al
g ry
ur t
Ġan imal
Ġ end
Ġs n
a ut
Ġc le
ĠJ o
e m
v ent
ur p
Ġg r
Ġbe aut
e ar
Ġj ump
Ġa d
b er
re am
p t
ĠS o
ĠH er
Ġfl ow
i es
Ġc he
Ġb ra
Ġthan ked
Ġe ven
Ġb est
Ġc all
ad y
Ġlot s
Ġlaug hed
H e
s elf
Ġr a
Ġwa y
ur n
Ġfa st
Ġb y
ll y
Ġf am
Ġ C
v es
ard en
Ġbeaut i
Ġg arden
w n
T h
s h
Ġbeauti ful
Ġl oud
Ġsk y
le w
Ġd on
h n
in y
Ġcare ful
Ġlo ve
Ġf i
ĠThe n
 
 
a se
ec t
Ġsa fe
ĠA nd
Ġu nder
Ġc ome
ĠF rom
Y es
ĠM ia
Ġc u
Ġh ard
I t
Ġw o
Ġl ist
Ġst ay
an e
op le
Ġg l
n ing
Ġst ill
oo l
Ġh urt
ĠH is
Ġim p
Ġfam ily
Ġ 
Ġb oth
r m
ig h
Ġli ved
he s
Ġpe ople
W hen
Ġanimal s
re e
Ġco l
Ġbra ve
Ġwal ked
Ġre m
T im
o b
c t
Ġl et
urp r
ĠW hen
Ġt e
Ġtw o
Ġs urpr
Ġsh ould
is hed
re ss
Ġb ad
Ġke pt
Ġf ore
Ġf lew
Ġf in
Ġst or
Ġf ly
a st
is ed
i p
Ġit s
l ed
o ck
uc y
f ore
Ġgo ing
Ġcle an
Ġd an
Ġcall ed
Ġso on
Ġp ic
Ġsh are
k ay
Ġan gry
Ġro ck
Ġpret ty
Ġc on
N o
Ġ ide
i ed
il ly
Ġg round
Ġr ed
Ġexpl ore
Ġc ry
Ġad vent
Ġst o
Ġre al
s o
L et
Ġw ind
Ġsh iny
b e
Ġb ook
Ġal so
Ġdo ll
Ġide a
Ġbe fore
Ġop ened
dd ed
Ġwh ile
um my
Ġke ep
Ġe y
Ġfeel ing
Ġdo or
Ġn ow
o on
o y
Ġwal king
Ġno ise
le s
Ġf r
ag e
Ġcol or
i ous
Ġt urn
t hing
f f
u ch
t h
Ġb ed
Ġd ra
Ġpick ed
ar y
e et
Ġclo s
Ġcl im
Ġd el
t ure
W hat
Ġbe ing
Ġclim b
Ġf ood
Ġu n
Ġf ar
j oy
Ġadvent ure
Ġsmil e
a c
Ġd if
 
Ġw r
ug ht
Ġth r
Ġloo king
ic ed
Ġn ext
ĠL ucy
Ġno dded
Ġqu ick
Ġ P
Ġd is
Ġre pl
ĠD ad
Ġwa it
em ber
Ġfore st
iz ed
ĠS uddenly
Ġt ra
Ġey es
g er
T hat
bb it
Ġo wn
Ġr ain
Ġimp ort
Ġgre at
Ġpic ture
Th ank
S uddenly
Ġsto pped
Ġen joy
Ġv o
B en
Ġg ive
Ġimport ant
Ġwor k
Ġrem ember
Ġne ar
g an
p ot
Ġe ver
Ġa pp
Ġa fter
Ġquick ly
Ġlist en
Ġb re
bb ed
t ing
Ġm a
Ġrepl ied
Ġf ish
Ġra bbit
Ġhand s
Ġ G
Ġnot iced
Ġbr o
Ġsl ide
Ġwal k
Ġth ink
Ġtr uck
Ġa c
t ed
k es
Ġstr ong
S he
Ġshow ed
Ġg i
Ġevery one
Ġwo nder
by e
fe re
Ġdif fere
ir st
S o
Ġs ure
Ġha s
Ġr ight
Ġbec ame
Ġbe en
ma z
Ġs ound
Ġto w
Ġr u
Ġt al
Ġa maz
Ġhe ad
Ġsh out
Ġbr ight
Ġwat ched
Ġ R
Ġy ear
Ġm or
Ġch ild
a ble
Ġme an
Ġw here
ll ow
Ġh igh
Ġfa ce
ĠS ue
Ġc ook
d ay
Ġwat ch
ay be
Ġbl ue
er ed
a ught
Ġdiffere nt
Ġst ore
Ġ N
Ġgood bye
Ġd ress
u ll
ĠB ob
n g
an ge
Ġo kay
Ġs qu
is y
Ġd e
ĠMom my
Ġvo ice
le ase
J o
at h
ĠS pot
Ġn ight
Ġbo at
Ġu s
Ġflow ers
Ġpl ace
Ġfo llow
Ġa r
Ġu se
Ġclos er
un ny
le ep
ir ed
Ġfa v
Ġy ell
Ġgra bbed
Ġcu ri
Ġwa rm
Ġfor g
Ġc r
ĠSara h
ĠJo hn
Ġm ag
Ġst ick
Ġjump ed
W e
Ġc ake
Ġany m
Ġanym ore
Ġt ell
A fter
Ġbut ter
nd ma
Ġth ree
Ġa m
Ġas k
c o
Ġ our
Ġcuri ous
l ie
ou nt
or n
Ġcon t
Ġfe ll
a ched
Ġbird s
ĠT h
as s
H er
Ġhelp ed
is s
Ġpu ll
ĠJ ane
it c
Ġf irst
Ġbl ock
Ġh op
Ġb it
Ġd r
Ġreal ized
Ġk id
L ook
il a
Ġbr other
Ġm on
A nna
S ara
Ġ z
ĠEvery one
Ġat e
Ġdo es
Ġhapp ened
im es
Ġst op
z y
Ġfav or
Ġy ummy
itc hen
Ġk itchen
pp y
Ġsw eet
u s
Ġre ally
Ġp er
a isy
Ġfavor ite
Ġgra ss
Ġbe gan
Ġre st
Ġre ady
Ġle a
Ġunder st
Ġre ached
a ir
Ġstor y
ĠA s
Ġb unny
Ġp ain
' re
Ġs ing
st er
Ġfl o
Ġon ly
Ġsa nd
Ġhe re
Ġgl ad
Ġhe ar
Ġt ri
Ġbe h
Ġop en
Ġwor ld
Ġc re
fu lly
Ġpr in
are nt
w here
Ġflow er
Ġthr ough
Ġfi re
Ġb a
Ġd one
Ġha ving
Ġth ing
Ġdel ic
Ġhim self
Ġst e
Ġp arent
Ġt ired
Ġso ft
Tim my
Ġf ro
Ġbutter f
Ġta st
ĠL et
Ġwh y
Ġp art
Ġc ut
Ġm ess
k en
Ġwor ry
C an
Mom my
i ver
Ġd in
u ff
Ġmag ic
at er
Ġshout ed
Ġwa ved
Ġpo nd
Ġkid s
Ġh at
Ġse es
Ġd uck
ill ed
o lly
Ġg ame
i ent
Ġma king
at her
Jo hn
A s
ak es
Ġcat ch
el y
Ġse en
Ġc ool
Ġcom ing
at ion
Ġl ess
Ġu sed
Ġd ark
Ġfi x
ed dy
ĠJo e
Ġthan k
Ġto p
m er
Ġl ady
Ġha ir
Ġp rom
ĠC an
Ġho pped
" .
ig n
Ġsurpr ise
Ġdra w
Ġm um
Ġfun ny
Ġm ouse
re l
Ġc ra
ap er
Ġ -
Ġf ull
Ġto uch
Ġl ight
Ġsp ot
re n
ĠBen ny
Ġd ro
Ġparent s
b o
Ġwor ked
in s
one y
Ġsurpr ised
ĠD o
Ġcare fully
Ġfro g
Ġtre es
Ġsw ing
Ġdo ing
ar ing
D on
in ally
Ġs at
ĠT hat
Ġ ice
ĠI n
Ġhe ld
Ġrun ning
W ow
Ġpret end
Ġsw im
Ġs et
Ġdelic ious
Ġre ad
Ġneed ed
Ġt ight
Ġremember ed
Ġsl ow
Ġco ld
Ġlo st
ard s
Ġsm ell
Ġhapp ily
Ġw ood
Ġbeh ind
Ġlook s
h y
Ġher self
Ġenjoy ed
Ġc ried
Ġyear s
as k
Ġnam e
Ġblock s
Ġho le
Ġbu y
Ġd ri
Ġyell ow
Ġs leep
c ess
Ġbutterf ly
u ed
i ke
Ġw ished
Ġper f
Ġan other
Ġgre en
ĠD aisy
Ġmo ve
Ġt all
Ġb ag
Ġa ir
Ġflo or
Ġless on
Ġcar s
u l
Ġb ow
Ġar ri
Ġwind ow
Ġchild ren
Ġsh o
n er
Ġfin ished
Ġh ill
and y
ĠA fter
s p
en s
Ġp aper
Ġli kes
F rom
Ġho ld
s y
S am
Ġwr ong
Ġunderst and
Ġcont in
re ed
at ter
u it
Ġst ar
re w
Ġclo se
Ġany thing
Ġg ent
Ġwa ll
as ure
Ġle ft
Ġarri ved
Ġa ble
Ġh un
ro ss
a v
Ġfriend ly
Ġforg ot
Ġ el
am a
Ġg one
Ġcre at
Ġli on
Ġw et
ell o
H ello
Ġd ream
Ġh ot
ĠS ally
Ġd ir
Ġf illed
Ġcook ies
ie ld
Ġlaug h
Ġdin ner
Ġbro ken
Ġel se
l f
Ġh id
c ed
Ġm ar
Ġfollow ed
Ġp ink
Ġta ble
ġ Ġ
Ġcolor s
Ġmom ent
ou p
Ġcontin ued
Ġwonder ful
ĠE m
e y
ir rel
in ed
Ġfin ally
r ot
Ġa rm
Ġm ight
J ack
ĠN ow
Ġbu ild
Ġy es
Ġc ast
Ġen ough
ĠB illy
Ġsome one
ĠThe re
Ġperf ect
Ġstay ed
Ġfa ir
Ġmor ning
a pp
Ġpu ppy
Ġdad dy
Ġtry ing
Ġj u
' ll
Ġother s
Ġbook s
Ġmu s
Ġag reed
Ġsn ow
Ġsqu irrel
Ġc ream
ro om
Ġget ting
Ġgra ndma
Ġba by
Ġlea ves
ĠL ila
Ġfe w
ic y
Ġc ount
The n
Ġf all
A t
g on
Ġbre ak
Ġclimb ed
ri es
Ġbe ach
as h
Ġp lease
Ġb ug
Ġm other
Ġtra in
Ġbr ought
ĠTh is
an ce
Ġde ep
Ġv is
at ed
s hed
Ġm et
ĠTom my
Ġevery thing
Ġsomet imes
Ġwas n
Ġmus ic
i ch
ke y
Th is
l ing
o s
Ġturn ed
Ġr ide
or ing
Ġs ong
o om
Ġsp ark
Ġhun gry
Ġf ight
Ġpicture s
on s
d s
Ġm akes
Ġse ar
Ġlist ened
uck y
Ġjo y
Ġpo l
ĠW hat
Ġcl ot
e e
H is
Ġsa il
b ble
a pped
Ġcom p
Ġclot hes
Ġwant s
Ġpl an
Ġpo in
Ġ K
Ġstr ange
Ġball oon
z z
en ny
Ġfly ing
Ġgr ow
Ġp i
m an
Ġsc ary
r ow
Ġtre at
Ġamaz ed
Ġwa ited
Ġt eddy
Ġcast le
is ter
Ġe le
Ġamaz ing
m ed
Ġsp l
Ġown er
Ġle ave
O h
Ġprom ised
Ġdan ger
e ver
O K
Ġwh ite
Ġs uch
Ġtal k
Ġp at
uff y
Ġf ur
op e
Ġp ie
r ed
Ġpull ed
Ġp re
Ġwood s
ĠT o
Ġsh ared
Ġtow ards
Ġal one
ĠM aybe
c le
Ġcolor ful
Ġn ap
Ġs it
am p
Ġvis it
p h
ug g
ig g
th y
Ġmagic al
ct or
Ġta il
en ce
Ġr iver
Ġbe lie
Ġh ig
o l
el c
Ġgr ate
ot t
u ally
an g
Ġh ide
Ġsmil es
Ġs illy
ow er
Ġs ide
Ġro ll
Ġpr o
ĠA my
Ġg u
M ax
Ġgrate ful
Ġfast er
et er
Ġtre asure
Ġsn ack
as ed
av y
Ġla nd
u p
Ġmor al
Ġwe ar
ain ed
ĠG ra
Ġs ister
Ġpain t
Ġsh ap
Ġslow ly
Ġf ield
ĠJ im
Ġp et
or m
Ġs ec
Ġbr an
Ġmu st
Ġm in
Ġwor ried
Ġhelp ing
Ġfo x
Ġjo b
m e
Ġm oney
s et
Ġp ot
Ġqu i
Ġac c
Ġbe l
Ġli ving
Ġmon ster
Ġpart y
le ss
Ġmo st
Ġs ign
i re
w l
Ġcl oud
Ġc andy
Ġhig her
ĠA ll
id ent
i pped
d er
Ġqui et
z e
Ġto wn
Ġprin cess
un ch
ask et
Ġrun s
Ġevery where
Ġste pped
Ġjo in
Ġl ake
Ġb asket
Ġb ar
Ġcu p
Ġcar rot
out h
s w
ĠDad dy
Ġco ll
Ġsc ream
Ġpl ant
Ġbl ank
Ġch o
Ġbig ger
Ġhe avy
Ġb uck
Ġclo sed
Ġan sw
is es
Ġp h
Ġw on
Ġblank et
b r
Ġm outh
Ġpi ec
Ġpiec es
Ġeat ing
am es
Ġst re
ck et
Ġw elc
Ġwould n
Ġbro ke
Ġre ach
Ġdanger ous
e ared
ĠM olly
g s
Ġc e
ĠM r
or d
Ġdoll s
f ort
m ing
Ġask s
Ġthink s
Ġdra gon
Ġdan ce
m b
Ġac ross
Ġch air
O kay
Ġte ac
Ġb ott
H i
Ġne igh
Ġp a
Ġb ike
Ġp ack
Ġneigh b
Ġdis app
it ing
Ġst uck
Ġbelie ve
Ġgi ft
Ġfr uit
i x
d e
c y
Ġcry ing
ph ant
i er
Ġr ace
Ġs oup
Ġs uddenly
Ġth rew
Ġacc ident
Ġfar mer
S ure
Ġele phant
Ġdir ty
Ġmon key
ve l
Ġhe al
Ġe ar
w eet
vent ually
or ed
Ġsa me
Ġp ers
e ad
pp ing
Ġgent le
Ġbr own
Ġf ree
Ġbe e
Ġin st
M aybe
Ġb en
Ġw in
Ġbl ack
Ġlong er
Ġal ong
Ġsm art
i ble
Ġcl apped
Ġsp r
W hy
F inally
Ġteac her
ĠF l
Ġwor ds
ck ed
Ġpie ce
ch ool
Ġup set
Ġwe ll
Ġche ered
Ġsa ng
Ġh it
Ġbow l
ĠJ ill
Ġdo ctor
Ġb ite
Ġbuck et
Ġb ath
M ia
Ġhe art
Ġc aught
Ġfor get
Ġbut t
Ġm ark
Ġse a
Ġyou ng
Ġd ry
Ġdro pped
Ġc our
our n
Ġpl ac
Ġy ard
es e
bb y
Ġsw ings
Ġs chool
Ġw ings
Ġexpl ained
b s
Ġj ourn
Ġstre et
Ġdr ink
Ġbr ing
Ġju ice
un g
ĠEm ma
Ġnear by
Ġstor ies
Ġpu shed
Ġsm o
Ġdro ve
Ġcour se
Ġp en
Ġt iny
Ġm ine
Ġ es
aught er
Ġpo cket
Ġto day
Ġsec ret
Ġj e
Ġex p
e k
Ġsing ing
Ġj ar
Ġwith out
Ġwelc ome
Ġhapp en
Ġst u
Ġf it
t o
Ġbu s
ra ct
Ġfair y
Ġcr ay
Ġche ese
Ġturn s
Ġbu sh
Ġexpl oring
ll o
b ow
Ġsee med
itt ing
Ġst and
Ġl on
Ġsp oon
ĠF inally
Ġwo ke
Ġg ames
Ġhop ed
Ġtw ins
Ġtr ou
Ġre sp
is sed
Ġlon ely
Ġat t
ĠM ama
Ġa nt
ount ain
Ġhug s
Ġno ises
or row
Ġke y
Ġin v
Ġd aughter
y ard
Ġdis co
Ġrock s
a il
Ġl unch
Ġs u
re ad
ou n
Ġback yard
ver ed
Ġapp le
Ġc ow
Ġs uc
m ent
Ġsho es
Ġsw am
Ġm ix
Ġstar s
Ġsh ook
itt ens
Ġm iss
c hes
Ġshap es
fu sed
Ġre lie
Ġw ish
Ġtow er
urp le
sh ine
Ġmo ved
Ġc orn
it y
Ġth ough
Ġ 3
Ġta king
Ġc ir
Ġrain bow
ap e
ĠT weet
Ġthr ow
Ġben ch
Ġcreat ure
ock ed
Ġne ck
Ġbu bble
Ġadventure s
um b
Ġl ate
ion s
Ġo wl
Ġp ar
Ġk ite
Ġshe ll
Ġw he
A nd
ĠFl uffy
il k
in ing
Ġaccident ally
Ġli ft
Ġf ence
u nt
ir t
Ġhe llo
Ġw ise
Ġsp in
Ġon to
pp er
Ġp urple
our s
t en
Ġs itting
Ġcut e
Ġsun shine
id ge
Ġm at
w ard
Ġwh ist
Ġsh op
Ġor ange
Ġd ist
aught y
L ila
ĠSam my
Ġn aughty
le t
Ġn est
o se
ll a
or s
Ġm ilk
Ġph one
Ġarm s
Ġb oun
Ġa f
n ess
Ġe as
ĠGra ndma
Ġcar ry
Ġinst ead
Ġdri ver
Ġb ought
o g
Ġsear ched
Ġtal ked
L ater
Ġsun ny
Ġco zy
Ġp ig
g ged
Ġfeel s
itt y
Ġwonder ed
Ġf an
Ġswim ming
Ġcom es
Ġh ar
ĠIn side
Ġp op
Ġto u
Ġtou ched
Ġlaug hing
Ġl ucky
a le
Ġbel ong
Ġsound s
Ġjourn ey
om an
Ġc ave
Ġw oman
Ġrelie ved
Ġco at
Ġnot hing
Ġc ou
Ġpe ace
Ġ O
ad ow
Ġbu sy
Ġno se
Ġapp les
Ġp ast
B ob
Ġpat ient
Ġr ope
Ġs ick
ra id
Ġin c
Ġp udd
Ġa ct
Ġaf raid
Ġbran ch
Ġwatch ing
Ġre t
Ġday s
id er
Ġto m
ĠM ary
c ing
Ġfar m
Ġb and
ĠTh ank
Ġhug e
th day
Ġdan ced
Ġexc iting
at or
Ġwa r
ĠSo on
Ġz oom
ble m
Ġg igg
b all
Ġcoll ect
Ġpro blem
Ġfore ver
Ġv ill
Ġm ad
Ġmin ut
p ed
Ġw ra
Ġ ve
Ġkne e
Ġli fe
h o
c es
Ġret urn
Ġas leep
Ġk ing
Ġsh ar
c er
D o
Ġshar p
Ġre l
Ġhold ing
et h
Ġp ower
Ġheal thy
Ġf ing
Ġpr ot
ĠM ittens
Ġme et
Ġspot ted
Ġcle ver
Ġor gan
al m
Ġg ather
Ġl etter
Ġprot ect
Ġstor m
Ġr ound
e re
O f
Ġma il
am ed
Ġbir thday
ĠJ en
ul ar
Ġpre s
Ġsa f
Ġneighb or
Ġta kes
ep end
Ġcom fort
s c
Ġre p
Ġ ent
Ġpers on
ĠJim my
Ġpoin ted
Ġgent ly
ĠW ith
Ġsmil ing
Ġtast y
co l
Ġsp o
ow ed
E very
st ing
Ġpl ane
ĠC h
itt en
Ġp ass
Ġp ill
it ch
Ġh oney
Ġsmell ed
Ġtast ed
Ġad m
Ġm atter
Ġpic n
Ġsh ining
Ġe ag
o ve
Ġplac es
Ġhop e
He y
Ġpicn ic
Ġresp ect
Ġbott le
Ġk ick
h in
Ġsu pp
Ġapp eared
Ġb lew
ĠC ome
bo ard
Ġche er
Tom my
Ġint ere
Ġsp ider
Ġpres ent
um ber
Ġwe aring
Ġtrou ble
iz e
Ġm ist
Ġtri p
Ġqu est
Ġk iss
Ġp ract
er t
Ġtight ly
Ġlo ves
Ġas h
o nd
ar ge
g g
Ġs ur
Ġsp read
Ġfe ather
on es
Ġw ide
a ur
Ġspl as
on t
Ġbre ad
Ġany one
Ġwho le
Ġl ater
nd p
ell a
Ġre c
Ġd es
M olly
Ġro ad
op h
Ġgi ant
ce an
Ġo cean
I n
Ġcook ie
Ġpu zz
el s
Ġscream ed
Ġcon fused
Ġp ath
Ġp an
Ġcloud s
ĠG o
Ġfr ont
Ġimp ress
e b
Ġse at
Ġsh irt
le x
Ġwh ich
Ġl ay
Ġte ach
Ġth in
l a
er ly
ung le
Ġansw er
Ġd i
ss ed
Ġa p
Ġprom ise
Ġj ungle
Ġl arge
u b
h ile
Ġb er
Ġs er
ndp a
Ġbutt on
oo se
Ġm ach
Ġb ark
Ġw ild
Ġvill age
Ġsn ake
Ġmy ster
G ood
ĠEm ily
Ġh or
Ġim ag
Ġla st
Ġput s
Ġtoo l
C ome
ĠJ ake
Ġsl id
Ġe ventually
le br
Ġb an
Ġt id
L ucy
Ġcray ons
Ġce lebr
ĠEvery where
Ġch ased
Ġli ve
Ġwa ve
Ġgi ves
Ġwr ite
Ġsp ent
J ust
Ġdel ight
Ġfo ot
Ġdec or
if e
un k
Ġdir t
Ġsand w
Ġso l
Ġt ear
Ġtreat s
Ġtal king
ĠJ enny
t s
Ġintere sting
Ġsnow man
Ġhid ing
Ġwait ing
ch ing
Ġc art
Ġtast e
Ġshe lf
on y
Ġh on
e en
J im
Ġst ep
Ġfe et
Ġhelp ful
M um
Ġv al
Ġgo es
Ġsh y
Ġbuild ing
Ġsh r
Ġe mb
Ġst ood
Ġcorn er
Ġduck s
Ġlove ly
Ġst ret
Ġo ven
Ġroll ed
Ġpretend ed
ck s
Ġwas h
Ġru de
in a
Ġtid y
Ġpudd le
Ġz oo
Ġte eth
Ġjump ing
Ġp ile
Ġc alm
o ld
Ġash amed
Ġbug s
ip e
ig er
M ama
Ġb at
Ġst ra
Ġo b
Ġban an
Ġwhist le
ĠS t
Ġforg ive
Ġn et
n ot
Ġprin ce
en er
Ġemb ar
Ġc oo
Ġs elf
Ġspark ly
Ġrem ind
ump y
Ġembar ra
Ġsuc cess
Ġfe ar
Ġcan not
Ġm ind
Ġc ross
Ġs ug
Ġpeace ful
Ġfo ld
Ġwor m
Ġsh aring
Ġm ot
S oon
Ġbl ow
Ġm ountain
Ġw ore
Ġfur ry
Ġbe ll
l ice
Ġ ign
Ġgra b
Ġwhen ever
omet imes
al s
Ġp our
Ġsug ar
Ġmach ine
Ġbre ath
Ġpu sh
ll ie
v ous
Ġcreat ive
Ġch ick
Ġtri es
Ġsp e
Ġdo lp
Ġst ir
Ġb al
n ed
S t
Ġl ad
N ow
Ġspr ay
ul t
or k
Ġsa l
Ġg ener
Ġp ool
Ġm ed
Ġsh ip
Ġself ish
is a
Ġhe l
Ġh um
i an
Ġmess y
Ġfa ces
Ġcho col
ĠL e
Ġgo ld
ĠH ow
ĠS ome
Ġp le
Ġ '
Ġpill ow
Ġminut es
P lease
Ġfight ing
Ġfix ed
Ġv an
ig hed
Ġm issed
Ġt un
a king
M y
Ġembarra ssed
Ġf ig
in ted
Ġtom orrow
Ġdri ve
Ġme ant
Ġlad der
Sara h
ĠP lease
Ġknow ing
Ġsp icy
Ġn er
Ġc a
Ġh ours
Ġhor se
it al
Ġtr ust
ĠJ ust
Ġu g
at o
Ġug ly
sp ital
Ġho spital
Ġner vous
Ġeas y
Ġbed room
Ġche w
Ġcarrot s
Ġthank ful
Ġro b
Ġcou ch
Ġbar ked
Ġcol our
Ġgre w
ell y
Ġdisapp o
Ġunderst ood
Ġta ught
Ġme adow
Ġn ut
D ad
as sed
Ġcl ass
Ġof ten
an o
Ġp assed
Ġland ed
Ġkn ocked
Ġmu d
Ġco in
ir d
Ġm ic
Ġd eter
w ork
Ġdeter m
Ġreturn ed
Ġre g
Ġfin ish
Ġh ur
Ġsmo oth
Ġte a
iz z
Ġgener ous
Ġmo v
Ġst uff
m o
Ġ On
Ġdr um
is p
T o
Ġrob ot
Ġbubble s
o bby
Ġdisappo inted
Ġgl ass
Ġse ed
Ġthe se
Ġr ing
g round
Ġchocol ate
Ġhear s
Ġmo on
Ġcar ried
Ġc ard
Ġfan cy
Ġcir c
Ġsnack s
Ġlea f
Ġsong s
Ġcra b
ust r
ĠA nn
Ġsp end
d le
os aur
eci ally
Ġp ir
p ack
Ġhon est
Ġsleep y
ĠE ven
Ġbr idge
Ġe m
Ġso ld
Ġpa w
ĠB r
Ġm ir
Ġes p
Ġesp ecially
Ġdin osaur
Ġwo lf
Ġche st
iz zy
ĠW hy
Ġa v
Ġgather ed
Ġgr oup
Ġch ange
or y
Ġg as
Ġm ap
Ġspl ash
Ġpo or
Ġs our
Ġmyster ious
Ġcl own
Ġfor ward
Ġwa ves
Ġcra w
Ġfr ustr
Ġbo dy
r or
ĠTo gether
Ġsmell y
Ġstr ing
Ġtw irl
Ġwh isp
Ġr ad
Ġn umber
Ġo k
Ġp in
Ġf ake
Ġneck l
ĠK itty
Ġsc ar
Ġg ate
Ġc and
s ist
Ġmot or
B illy
Ġje w
ur se
Ġsh ore
ot e
y ing
Ġfing er
Ġgr umpy
Ġwe ak
Ġpol ite
Ġk itten
Ġsa ck
Ġgl ue
Ġmir ror
Ġes c
air s
u ce
mo st
Ġber ries
Ġplant s
Ġv ase
Ġshe ep
Ġj elly
d en
Ġneckl ace
Ġem p
Ġpuzz le
Ġgr ay
Ġsc r
itt er
ĠThe ir
B e
Ġemp ty
Ġfrustr ated
us ie
Ġal most
Ġpl ate
Ġm aybe
Ġexp ens
Ġsk ipped
Ġj am
Ġth ick
or ry
p ort
Ġexpens ive
Ġdeterm ined
Ġhid den
Ġclos et
ag ed
ĠT eddy
Ġho pping
Ġle gs
Ġd rew
Ġl it
Ġb ored
Ġstick s
The re
ĠS ometimes
at es
Ġfruit s
Ġpol ice
ĠD on
Ġbird ie
ĠA t
Ġon es
Ġfig ure
au l
Ġdog s
Ġst one
ot s
Ġl ine
Ġb ake
Ġw is
Ġa unt
Ġt ick
ĠBr own
Ġcont ent
Ġmo ving
Ġc ries
Ġs ight
J ane
Ġsplas hed
Ġpower ful
Ġpack ed
Ġbran ches
bo x
?" .
Ġcl oth
Ġsa ved
Ġyell ed
est ed
Ġfe ed
Ġspo il
Ġcr ane
Ġta ken
Ġex am
ĠB ella
oo p
id dle
Ġp ay
Ġt iger
k in
d ge
W here
ĠLe o
Ġdisco vered
Ġansw ered
Ġfl ag
Ġha ng
' d
Ġdolp hin
Ġstand ing
Ġjo g
Ġpr ay
Ġexc ite
Ġsee k
Ġsa ve
u sh
Ġj ack
Ġfl ut
ra g
er a
A re
get able
ĠB e
Ġexcite ment
Ġinc red
Ġlo ck
Ġb oring
Ġjack et
Ġple ased
ol a
ĠM um
Ġso ap
Ġf ill
Ġf is
Ġw ip
Ġs ighed
Ġorgan ized
Ġballoon s
Ġwr ote
Ġe ld
Ġm iddle
Ġs ugg
l ight
Ġsail ed
qu e
Ġtell s
The ir
Ġve getable
Ġsp un
Ġbo ard
Ġst ones
Ġo y
Ġwor king
in ess
y m
l ies
Ġ ind
Ġscar f
St op
Ġpar rot
if f
al k
l ower
Ġtear s
Ġcomfort able
bo dy
as ing
Ġme asure
Ġcl ap
Ġwa gged
Ġ ext
Ġincred ible
Ġfeather s
Ġsmo ke
Ġdr op
Ġfr ight
Ġtr ue
Ġsw an
Ġle g
Ġmov ie
Ġeag er
Ġpu s
Ġlo se
Ġc ap
Ġt ie
u al
g gs
Ġco vered
Ġe ggs
Ġr id
oo f
Ġc op
f ic
Ġrec ord
Ġdisapp eared
Ġgra p
Ġle m
Ġha m
Ġf il
Ġgigg led
Ġor d
Ġyour s
ĠB l
ĠT V
ĠJohn ny
Ġen g
Ġyour self
Ġr are
Ġp ri
c orn
Ġte am
ĠL isa
Ġkn ife
Ġwh ale
Ġquest ions
Ġwra p
Ġli br
Ġd izzy
Ġb one
Ġt est
z ed
Ġstra w
app ing
Ġdraw ing
Ġdif fic
Ġkind ness
Ġro ar
Ġno isy
Ġli cked
Ġst amp
Ġl ying
i v
Jim my
Ġpop corn
Ġrock et
Ġgr own
at ely
Ġwa gon
Ġb urn
Ġext ra
Ġbal ance
Ġlift ed
Ġhappen ing
Ġsw ord
ĠE nd
Ġan c
Ġwa nd
Ġb atter
S ally
Ġmist ake
Ġsmall er
Ġtr ack
Ġbec ome
ĠE lla
ĠM ark
Ġwe ek
Ġf at
Ġwa nder
h a
S orry
Ġdiffic ult
Ġhar m
Ġbath room
ĠP eter
Ġman aged
el ves
at ing
Ġto ast
Ġanc ient
Ġmat ch
Ġru ined
Ġoff ered
Ġtw ist
Ġdist ance
ill i
Ġg ar
Ġadvent ur
Ġdan cing
Ġla zy
Ġplay ground
orm al
Ġcr own
Ġclean ed
Ġcall ing
ĠB a
Ġon ce
a f
Ġfright ened
Ġwalk s
Ġse ll
Ġbo ss
em o
Ġfl uffy
Ġm ask
er ri
Ġadventur ous
Ġcir cle
Ġdr ank
Ġey e
Ġpick s
Ġy og
Ġn ormal
Ġd est
Ġf rag
Ġ Z
Ġeld erly
Ġshell s
iss ors
Ġenjoy ing
Ġche ck
Ġtr unk
Ġget s
ĠL ittle
Ġsc issors
ic t
Ġk issed
Ġp ress
Ġt ent
Ġste al
Ġpe ar
ag es
Ġto ug
Ġt erri
S pot
Ġstu dy
Ġju icy
Ġal re
Ġalre ady
et e
M e
Ġcirc les
Ġtow el
Ġloud er
Ġall ig
Ġp izz
er p
Ġh orn
Ġtoug h
Ġcheer ful
Ġar g
ĠR ex
Ġte le
Ġfam ous
Ġsl ipped
Ġro se
Ġle ad
Ġeng ine
Ġsweet ie
Ġde er
Ġagain st
Ġd ish
Ġd ig
Ġf ool
Ġb arn
i pper
Ġspin ning
Ġbag s
Ġneed s
Ġco ver
Ġf ather
Ġ ed
Ġfrag ile
Ġind epend
Ġsandw ich
Ġdi am
Ġdiam ond
Ġcoll ar
Jo e
Ġgi ving
Ġy arn
an ged
Ġa w
S ue
Ġlem on
Ġsugg ested
Ġhurt s
Ġtw ig
Ġno sy
ce pt
W ho
Ġham mer
Ġrel ax
ac he
Ġfr own
Ġreal ised
Ġbox es
Ġho se
Ġbl oom
Ġno d
or ge
in ation
i est
Ġallig ator
Ġcr ack
Ġmo d
Ġwe ird
Ġa dded
Ġvegetable s
Ġlearn ing
ra ge
Ġsh ake
o ot
G ra
A my
Ġstu bb
Ġtra p
ĠB obby
el p
ĠS usie
Ġm elt
Ġa dd
Ġstubb orn
Ġindepend ent
Ġpizz a
Ġchick en
Ġsear ch
Ġloud ly
Ġcle ar
Ġp ump
Ġb orrow
i que
Ġfool ish
erp ill
erpill ar
illi ant
Ġstraw ber
Ġinv ited
uit ar
ĠR ose
Ġsn ee
Ġqu een
Ġcat erpillar
Ġfl ash
Ġdec ide
Ġas king
Ġre f
s elves
Ġesc ape
Ġcolour ful
ĠTweet y
Ġbutt ons
Ġun ique
Ġcom b
Ġpe e
Ġbr illiant
Ġboy s
Ġkn ight
ur key
Ġst ri
Ġg uitar
Ġd epend
g y
Ġgar age
Ġsk in
Ġro de
Ġsay ing
ĠB u
Ġr ich
ur ed
Ġbe ak
Ġm ummy
d om
H elp
Ġoy ster
Ġun us
ed ient
Ġt urkey
e orge
a w
Ġunus ual
Ġwip ed
Ġreg ular
Ġcount ed
Ġru bb
Ġch ase
Ġp atter
Ġf ountain
Ġ OK
Ġpatter n
Ġjew el
Ġsuccess ful
Ġbanan a
mb re
Ġdream ed
Ġwall s
Ġlight s
Ġshow s
Ġfor k
Ġu mbre
l and
Ġtool s
Ġsaf ely
Ġpen c
Ġpenc il
Ġcry st
Ġsw e
ĠB ear
Ġl ow
in al
r ay
Ġimpress ed
Ġmark et
Ġbott om
Ġgu ess
Ġhard er
Ġab ove
Ġre sc
ce ed
Ġst ream
im ed
Ġt ape
W ell
Ġcraw led
ol og
Ġpat ch
Ġpe an
Ġpean ut
Ġno ds
ill a
Ġnot ice
ig inal
Ġwa ff
p le
Ġsol ve
Ġap olog
umb led
Ġcomp et
Ġlo ad
Ġg un
Ġt ire
Ġt ask
Ġt ank
n a
Ġdepend able
Ġed ge
ĠBl ue
Ġadm ired
Ġear s
Ġbreak f
Ġbreakf ast
ĠN emo
Ġgl ow
Ġfi er
Ġor iginal
ĠF in
Ġbr ush
Ġsh one
Ġb itter
h ip
M ummy
H ow
Ġ No
Ġboss y
Ġstrong er
Ġcl ay
ĠI f
ut h
Ġt em
u nd
Ġscr at
Ġmed ic
Ġba ld
Ġboat s
Ġjo ke
Ġpick ing
Ġknow s
Ġgra ndpa
as er
Ġc udd
Ġlibr ary
Ġhum ble
Ġob edient
Ġsuc ceed
ugg led
Ġra ft
Ġle an
Ġp enny
Ġc one
Ġfier ce
Ġcryst al
Ġterri ble
Ġsqu are
Ġsound ed
He re
Ġproud ly
Ġtr ay
Ġsa uce
he ad
Ġfr idge
Ġhand ed
ĠL ola
Ġhapp iness
in ary
Ġw itch
J ill
Ġumbre lla
Ġwhe el
Ġcho se
Ġmight y
Ġra ven
Ġjo ined
Ġch anged
ent ion
Ġr ough
f a
Ġmedic ine
Ġfire work
Ġsqu ee
Ġclean ing
Ġfind ing
Ġhelp s
ĠB ill
ar ry
Ġo w
Ġc ri
Ġt ag
Ġcompet it
Ġsur f
Ġcomp ass
Ġac cept
Ġgo at
Ġlo cked
ĠM ar
Ġplay ful
m et
a zz
ĠBrown ie
Ġhel met
Ġval u
Ġpar ade
Ġmix ed
Ġdisco ver
Ġcray on
Ġgu ard
Ġbutterf lies
Ġball s
ĠE llie
Ġch ir
ur ing
Ġbe et
k n
ĠBa by
oph ie
umb ers
Ġpers ist
Ġfall s
Ġmar ch
Ġlaugh s
Ġsto ve
Ġra ced
Ġkind s
Ġnice ly
Ġmo le
Ġmo s
Ġco st
Ġis land
at ure
Ġg um
u d
j ect
E m
Ġmos qu
Ġmosqu it
Ġmosquit o
Ġser ious
Ġvo l
Ġtr ump
Ġco ins
Ġg oose
Ġc age
i ence
A lice
Ġtrump et
Ġgu il
Ġbrother s
Ġun l
Ġexpl ored
Ġch oose
Ġexc la
el on
Ġn umbers
Ġc ro
Ġf lex
Ġpract ice
ĠMr s
orm ous
Ġfire man
Ġen ormous
Ġv ie
Ġvie w
Ġmom s
Ġ icy
Ġflex ible
Ġexcla imed
Ġguil ty
Ġvol c
Ġvalu able
Ġpoin ting
Ġmean s
Ġs up
w ards
Ġvolc ano
kn own
Ġph ot
Ġcra zy
Ġfav our
Ġuse ful
ĠM y
is ion
Ġp ipe
Ġc am
y al
Ġcompass ion
Ġflash light
Ġpop ular
Ġmar ble
Ġbright ly
ip op
Ġsc are
Ġall owed
Ġse al
Ġlo ll
Ġloll ipop
Ġfor th
om ed
Ġc ity
Ġwa ke
Ġfavour ite
Ġbelong ed
red ient
Ġsho ot
Ġhat s
Ġun known
!" .
Ġshe l
Ġst at
ing redient
er ry
Ġd ull
Ġh unt
Ġs il
Ġ ingredient
Ġ U
Ġsup er
Ġtwirl ed
Ġseed s
Ġkick ed
Ġdream s
ĠWhen ever
Ġbra ce
Ġlo yal
Ġp il
Ġbrace let
Ġharm less
Ġwhisp ered
Ġpir ate
Ġpour ed
Ġimpress ive
oph one
Ġrep e
ation s
Ġdelic ate
Ġtruck s
Ġway s
Ġshow ing
Ġsad ly
Ġan x
ĠM ike
Ġsh ark
Ġso fa
Ġbe es
Ġf ine
t ime
Ġpersist ent
Ġbus hes
Ġshap e
ang ar
angar oo
Ġus ing
Ġru shed
Ben ny
Ġdel iver
Ġen c
Ġhand le
Ġgra ce
art h
ad o
Ġt ied
Ġt urt
a ff
Ġanx ious
Ġoff ice
Ġk angaroo
ĠS p
Ġg or
Ġwra pped
Ġje al
Ġjeal ous
Ġpot ato
ia ble
ĠW hile
Ġsp ell
Ġan g
G o
Ġrel iable
urt ain
Ġco al
Ġlo g
Ġc urtain
Ġf our
ym bo
ymbo l
Ġce re
ĠTo by
Ġpain ted
ĠP e
ac hes
Ġs udden
D aisy
Ġcam era
Ġbeet le
Ġmet al
Let 
Ġcu sh
udd y
ous es
Ġth ose
Ġs ymbol
Ġt ummy
g u
Ġgor illa
Ġdelight ed
Ġcelebr ate
il t
Ġh ouses
Ġmotor cy
Ġsold ier
Ġwar ned
Ġmar ry
Ġdri ving
Ġprin t
Ġru bbed
irst y
Ġtra vel
Ġsp ace
Ġre ward
Ġsh iver
ke ep
Ġto oth
Ġtun n
Ġthin king
up id
Ġgrow ing
Ġhun g
co d
ĠBob o
ĠP ete
Ġexcited ly
Ġcar p
ie f
Ġme m
Ġher o
ar lie
Ġto r
Ġs on
c ut
Ġcro cod
Ġord inary
Ġflut e
Ġgas ped
Ġremind ed
Ġpre p
icy cle
Ġac orn
Ġv ine
Ġy et
Ġh ay
i pp
c u
W hile
Ġspoil ed
Ġhur ry
Ġcreature s
Ġam b
Ġpu p
ĠM andy
ĠB et
Ġc ur
Ġingredient s
Ġsupp ort
Ġwhe at
Ġmiss ing
co a
Ġsk ull
Ġla w
ug ged
Ġre sist
Ġsh ine
Ġst upid
Ġr ice
Ġm is
Ġt imes
Ġfil thy
Ġboun ce
ĠTweet ie
Ġset t
Ġtri ck
Ġmo der
ĠD ucky
Ġmu le
Ġme al
Ġsc oot
Ġsp illed
Ġdo ve
Ġwas hed
er y
Ġc ase
l oo
a id
Ġcarp et
Ġcere al
Ġstep s
Ġlive ly
Ġcra wl
Ġhair y
Ġbad ly
ĠF r
ĠD ave
Ġla b
Ġwor d
Ġsee m
Ġwe al
Ġso ar
Ġst umbled
Ġth irsty
Ġf re
Ġh oop
Ġb ase
Ġnut s
Ġdecor ate
Ġplac ed
Ġear ly
Ġdis g
Ġche ap
Ġcom pl
Ġtr uth
Ġback pack
Ġgo al
it her
Ġw ool
Ġdisg ust
gg ing
Ġcarry ing
Ġspark led
Ġswing ing
Ġtell ing
Ġen v
Ġnew s
Ġsc ale
Ġsc atter
Ġcl um
Ġhelp less
ic es
Ġthem selves
Ġb ump
c ream
O w
Ġcompassion ate
Ġpee ked
Ġpa le
Ġcomp ut
Ġfall ing
Ġdoes n
Ġsn e
Ġcare less
Ġfriends hip
ri c
in es
Ġturt le
Ġfing ers
Ġcou rage
Ġpig e
Ġcu be
ĠEvery thing
Ġpe bble
Ġch asing
Ġch alk
Ġst age
Ġs end
v ice
f ish
c om
Ġclum sy
Ġdisgust ing
Ġmoder n
Ġmic r
Ġneighb our
Ġsleep ing
Ġsh aking
Ġb icycle
Ġs ink
y ear
b led
Ġcomput er
Ġamb ul
Ġambul ance
Ġpract iced
Ġspo ke
Ġtri ang
Ġde ad
Ġend ing
Ġbu l
ic hes
Ġbig g
Ġbigg est
Ġn ail
Ġc her
Ġh ook
I f
Ġmicr ophone
Ġcrocod ile
keep er
Ġcush ion
Ġpack age
ĠTo day
Ġwall et
Ġch ar
Ġst ation
Ġl amp
i bb
Ġcost um
Ġpump kin
Ġpen gu
Ġjo lly
Ġthought ful
ĠA lex
u nder
Ġstat ue
Ġquest ion
Ġboun ced
Ġdream ing
Ġopen s
Ġbright er
Ġun iver
Ġint ell
Ġgra nd
Ġkn ock
Ġst airs
im i
Ġo l
Ġp ony
Ġd ough
Ġf ive
Ġintell ig
Ġweal thy
hin o
Every one
Ġhar sh
Ġele v
Ġsho e
Ġpain ting
Ġper m
Ġbeaut y
Ġpe pper
ĠYou r
Ġco coa
ĠA lice
is k
Ġw ine
Ġelev ator
Ġtor n
Ġafter n
Ġaftern oon
uck ed
Ġstart s
Ġne at
Ġhapp ier
an s
Ġn ature
Ġm ild
Ġs uit
Ġspe ed
Ġbar ber
Ġbasket ball
Ġsear ching
Ġread ing
ĠR ed
Ġimp at
ill ie
Ġj et
Ġre ce
or ant
Ġp ed
Ġt en
t i
g en
Ġfre sh
Ġrid ing
aul if
Ġcand le
Ġsandw iches
Ġslid es
Ġdes ign
Ġcup board
Ġlea ving
Ġmag n
ĠG ive
Ġclo ck
ĠM ummy
Ġst ack
a wn
S ee
aulif lower
Ġtunn el
Ġenc ou
Ġtick et
Ġcoo king
Ġrespect ful
Ġhair cut
Ġjump s
em ent
Ġen er
Ġsh ocked
o ppy
Ġimpat ient
Ġpri ze
Ġav ail
Ġval ue
Ġwhe els
Ġcre ate
Ġsor ts
Ġal ert
Ġfor t
Ġy awn
Ġth ief
Ġm ay
re en
Ġs le
G ive
Ġintellig ent
Ġscoot er
Ġresc ue
Ġdest ro
Ġsal ad
Ġmonkey s
Ġmu sh
ir on
Ġit self
an ger
Ġg em
Ġm elon
Ġc auliflower
Ġc amp
Ġc omet
in ce
Ġb ent
Ġs ent
he t
M ary
het ti
Ġavail able
Ġmotorcy cle
Ġgrace ful
Ġmic ro
Ġign orant
Ġbanan as
Ġbark ing
Ġexp er
ag hetti
Ġsc old
Ġr hino
Ġr oof
il ing
Ġd ug
a z
Ġmicro sc
Ġmicrosc ope
Ġav o
Ġfear ful
Ġstret ched
Ġpa id
ĠK im
Ġbeh ave
ĠG eorge
Ġany where
Ġbu ll
um mer
Ġsp aghetti
Ġbo ots
Ġe arth
ĠS n
h ood
Ġmush room
Ġpige on
Ġenv ious
eb ook
Ġfur ther
Ġperf orm
Ġstop s
Ġad vice
Ġsn iff
Ġold er
ĠE ventually
Ġnot ebook
i o
com fort
comfort able
Ġtem ple
Ġyog urt
Ġob ject
Ġmeet ing
Ġtom ato
Ġpro v
Ġdraw er
Ġar row
Ġshout ing
Ġun comfortable
ĠC l
Ġbu ilt
Ġv ide
Ġcl apping
Ġth under
or able
Ġn urse
at s
Ġp un
u bby
Ġcoo ked
Ġcount ing
Ġad orable
Ġsk ip
Ġsw itch
Ġch ubby
Ġloo p
ĠT ony
u es
e f
Ġfis her
Ġhel ic
Ġhelic op
Ġhelicop ter
Ġblow ing
Ġgigg le
Ġtrou bled
ĠGra ndpa
Ġsn uggled
Ġqu ite
ist ol
Ġsh ut
Ġst ared
en ry
ar ian
Ġp istol
Ġdestro y
Ġcompetit ive
Ġpus hing
Ġstir red
Ġpass port
ho st
Ġtreasure s
Ġmar ched
Ġforg ave
Ġnow here
ip s
oo ped
ĠS ophie
p ar
Ġtriang le
Ġang el
Ġrubb er
Ġbat ht
Ġbatht ub
Ġfoot ball
Ġrep air
Ġbre at
Ġen vel
pl ay
op ard
Ġse par
Ġre ef
ke let
an ic
Ġg host
Ġg ir
t ter
o e
a ked
Y ay
Ġca ct
eb ra
Ġent h
Ġband age
Ġbar rel
Ġhold s
Ġz ebra
Ġgi ven
Ġshould n
uc t
Ġany way
Ġno body
Ġle opard
Ġnam es
ch anic
ĠS h
Ġm ill
Ġl ed
Ġcact us
Ġrhino cer
Ġbul b
ĠBet sy
Dad dy
Ġca b
Ġspe ak
Ġmusic ian
Ġdis play
Ġdis ag
Ġdon 
Ġme chanic
Ġsh ield
Ġr ibb
Ġo tter
Ġp and
Ġp or
u be
i ves
Ġrhinocer os
Ġcart oon
Ġgift ed
oom y
Ġwindow s
Ġcol ours
Ġcouldn 
Ġdidn 
Ġkn ob
Ġp urse
Ġs kelet
Ġs ummer
Ġa head
Ġt ube
i kes
e ath
C h
Ġcab in
Ġenth us
Ġenvel ope
Ġpengu in
Ġchar ming
Ġswe ater
Ġjelly fish
Ġmin t
Ġsho vel
Ġhop ing
Ġrain ing
Ġdis hes
ap a
Ġbl in
Ġfl our
Ġsc rew
ĠM iss
im p
Ġb et
Ġs ize
he art
g l
Ġwaff le
Ġroll ing
Ġtra sh
Ġwr iting
Ġun pack
Ġli z
Ġst aff
Ġin se
Ġth read
Ġp ant
re c
Ġgrap es
Ġstret ch
Ġorgan ize
Ġatt ic
Ġce iling
Ġair port
Ġmu ff
Ġro ared
Ġsh adow
ĠB uddy
Ġshe et
er able
Ġw ing
x y
Ġ iron
Ġmis erable
Ġsal t
Ġpi ano
ĠIn st
ĠW ould
ĠA re
Ġo bs
Ġobs er
rec i
Ġmagn et
Ġmed al
Ġimag ined
Ġzoom ed
Ġfree z
Ġstick y
Ġhead ed
ĠP at
ĠAnd y
Ġbear s
Ġneed le
Ġstr ugg
ess ert
ĠD an
Ġsc reen
Ġre fused
Ġd essert
Ġc ord
gl ass
Ġfisher man
Ġminut e
Ġsail or
Ġapp reci
ĠA l
Ġli ves
Ġ er
glass es
Ġliz ard
Ġsle pt
Ġstrawber ry
ĠGo d
Ġair pl
Ġfrog s
Ġde af
Ġru les
ree ze
Ġche ek
Ġsun glasses
Ġpo st
Ġch ance
Ġbr us
al ed
Ġr at
v ision
Ġpor ch
Ġpil ot
Gra ndma
Ġgold en
Ġatt ract
Ġcomp let
ĠJoe y
Ġmess age
Ġsand box
Ġrest less
Ġor der
Ġro d
Ġme as
ĠB unny
Ġbe ep
Ġin f
Ġd ear
Ġl uck
Ġpand a
Ġsil ver
und ry
Ġbatter y
Ġadm ire
ĠCh arlie
Ġspr ing
Ġperfect ly
Ġstick ers
Ġimp ro
Ġstr anger
